const unsigned char air_quality_model_tflite[] = {
 0x1c, 0x00, 0x00, 0x00, 0x54, 0x46, 0x4c, 0x33, 0x14, 0x00, 0x20, 0x00, 
 0x1c, 0x00, 0x18, 0x00, 0x14, 0x00, 0x10, 0x00, 0x0c, 0x00, 0x00, 0x00, 
 0x08, 0x00, 0x04, 0x00, 0x14, 0x00, 0x00, 0x00, 0x1c, 0x00, 0x00, 0x00, 
 0x90, 0x00, 0x00, 0x00, 0xe8, 0x00, 0x00, 0x00, 0x88, 0x0f, 0x00, 0x00, 
 0x98, 0x0f, 0x00, 0x00, 0x54, 0x15, 0x00, 0x00, 0x03, 0x00, 0x00, 0x00, 
 0x01, 0x00, 0x00, 0x00, 0x10, 0x00, 0x00, 0x00, 0x00, 0x00, 0x0a, 0x00, 
 0x10, 0x00, 0x0c, 0x00, 0x08, 0x00, 0x04, 0x00, 0x0a, 0x00, 0x00, 0x00, 
 0x0c, 0x00, 0x00, 0x00, 0x1c, 0x00, 0x00, 0x00, 0x38, 0x00, 0x00, 0x00, 
 0x0f, 0x00, 0x00, 0x00, 0x73, 0x65, 0x72, 0x76, 0x69, 0x6e, 0x67, 0x5f, 
 0x64, 0x65, 0x66, 0x61, 0x75, 0x6c, 0x74, 0x00, 0x01, 0x00, 0x00, 0x00, 
 0x04, 0x00, 0x00, 0x00, 0x98, 0xff, 0xff, 0xff, 0x0a, 0x00, 0x00, 0x00, 
 0x04, 0x00, 0x00, 0x00, 0x07, 0x00, 0x00, 0x00, 0x64, 0x65, 0x6e, 0x73, 
 0x65, 0x5f, 0x32, 0x00, 0x01, 0x00, 0x00, 0x00, 0x04, 0x00, 0x00, 0x00, 
 0x5a, 0xf0, 0xff, 0xff, 0x04, 0x00, 0x00, 0x00, 0x0b, 0x00, 0x00, 0x00, 
 0x64, 0x65, 0x6e, 0x73, 0x65, 0x5f, 0x69, 0x6e, 0x70, 0x75, 0x74, 0x00, 
 0x02, 0x00, 0x00, 0x00, 0x34, 0x00, 0x00, 0x00, 0x04, 0x00, 0x00, 0x00, 
 0xdc, 0xff, 0xff, 0xff, 0x0d, 0x00, 0x00, 0x00, 0x04, 0x00, 0x00, 0x00, 
 0x13, 0x00, 0x00, 0x00, 0x43, 0x4f, 0x4e, 0x56, 0x45, 0x52, 0x53, 0x49, 
 0x4f, 0x4e, 0x5f, 0x4d, 0x45, 0x54, 0x41, 0x44, 0x41, 0x54, 0x41, 0x00, 
 0x08, 0x00, 0x0c, 0x00, 0x08, 0x00, 0x04, 0x00, 0x08, 0x00, 0x00, 0x00, 
 0x0c, 0x00, 0x00, 0x00, 0x04, 0x00, 0x00, 0x00, 0x13, 0x00, 0x00, 0x00, 
 0x6d, 0x69, 0x6e, 0x5f, 0x72, 0x75, 0x6e, 0x74, 0x69, 0x6d, 0x65, 0x5f, 
 0x76, 0x65, 0x72, 0x73, 0x69, 0x6f, 0x6e, 0x00, 0x0e, 0x00, 0x00, 0x00, 
 0x9c, 0x0e, 0x00, 0x00, 0x94, 0x0e, 0x00, 0x00, 0x44, 0x0e, 0x00, 0x00, 
 0x28, 0x0e, 0x00, 0x00, 0x98, 0x0d, 0x00, 0x00, 0x88, 0x09, 0x00, 0x00, 
 0x78, 0x01, 0x00, 0x00, 0xa8, 0x00, 0x00, 0x00, 0xa0, 0x00, 0x00, 0x00, 
 0x98, 0x00, 0x00, 0x00, 0x90, 0x00, 0x00, 0x00, 0x88, 0x00, 0x00, 0x00, 
 0x68, 0x00, 0x00, 0x00, 0x04, 0x00, 0x00, 0x00, 0x0a, 0xf1, 0xff, 0xff, 
 0x04, 0x00, 0x00, 0x00, 0x54, 0x00, 0x00, 0x00, 0x0c, 0x00, 0x00, 0x00, 
 0x08, 0x00, 0x0e, 0x00, 0x08, 0x00, 0x04, 0x00, 0x08, 0x00, 0x00, 0x00, 
 0x10, 0x00, 0x00, 0x00, 0x24, 0x00, 0x00, 0x00, 0x00, 0x00, 0x06, 0x00, 
 0x08, 0x00, 0x04, 0x00, 0x06, 0x00, 0x00, 0x00, 0x04, 0x00, 0x00, 0x00, 
 0x00, 0x00, 0x00, 0x00, 0x00, 0x00, 0x0a, 0x00, 0x10, 0x00, 0x0c, 0x00, 
 0x08, 0x00, 0x04, 0x00, 0x0a, 0x00, 0x00, 0x00, 0x02, 0x00, 0x00, 0x00, 
 0x02, 0x00, 0x00, 0x00, 0x04, 0x00, 0x00, 0x00, 0x06, 0x00, 0x00, 0x00, 
 0x32, 0x2e, 0x31, 0x31, 0x2e, 0x30, 0x00, 0x00, 0x6a, 0xf1, 0xff, 0xff, 
 0x04, 0x00, 0x00, 0x00, 0x10, 0x00, 0x00, 0x00, 0x31, 0x2e, 0x35, 0x2e, 
 0x30, 0x00, 0x00, 0x00, 0x00, 0x00, 0x00, 0x00, 0x00, 0x00, 0x00, 0x00, 
 0x78, 0xec, 0xff, 0xff, 0x7c, 0xec, 0xff, 0xff, 0x80, 0xec, 0xff, 0xff, 
 0x84, 0xec, 0xff, 0xff, 0x96, 0xf1, 0xff, 0xff, 0x04, 0x00, 0x00, 0x00, 
 0xc0, 0x00, 0x00, 0x00, 0x65, 0x2e, 0x2f, 0x3f, 0x40, 0x34, 0x5c, 0xbd, 
 0xec, 0x50, 0x18, 0x3f, 0xc2, 0x8c, 0x82, 0xbf, 0x3b, 0x82, 0x2a, 0x3f, 
 0xe0, 0x86, 0xb6, 0x3c, 0x0a, 0x7b, 0x62, 0x3f, 0x38, 0x8c, 0xeb, 0xbd, 
 0x90, 0x96, 0x04, 0x3f, 0xa0, 0x0a, 0x46, 0xbf, 0xda, 0xfc, 0x29, 0xbf, 
 0x03, 0xb4, 0x62, 0xbe, 0xbf, 0x41, 0xf2, 0xbe, 0x8f, 0xf8, 0x4e, 0x3f, 
 0x38, 0x9e, 0x45, 0xbf, 0x24, 0xcc, 0x27, 0x3f, 0x99, 0xf5, 0xbf, 0x3e, 
 0x3d, 0x5f, 0x50, 0xbf, 0x46, 0x00, 0x02, 0xbf, 0xa9, 0xaa, 0x46, 0x3e, 
 0xc4, 0xd2, 0x3c, 0x3f, 0xa5, 0xb2, 0x73, 0xbf, 0xdb, 0xda, 0x51, 0xbf, 
 0xea, 0xee, 0x6a, 0xbe, 0x64, 0xa6, 0x8a, 0xbe, 0xf5, 0x7a, 0x87, 0x3e, 
 0x83, 0x84, 0x0e, 0x3f, 0x84, 0x8e, 0x6b, 0xbf, 0x31, 0x50, 0xaa, 0xbe, 
 0xa0, 0x20, 0xb5, 0x3e, 0x5a, 0x9a, 0x87, 0x3e, 0x05, 0x43, 0xc6, 0x3e, 
 0x0e, 0xfb, 0x49, 0xbe, 0x03, 0x26, 0x36, 0xbf, 0x04, 0xb6, 0x2c, 0xbe, 
 0x89, 0x12, 0xa2, 0x3e, 0xd1, 0xd2, 0x87, 0xbe, 0x33, 0x0f, 0x17, 0x3f, 
 0x5c, 0x73, 0x46, 0xbd, 0x97, 0xc6, 0x8e, 0xbf, 0x8b, 0xb6, 0x82, 0x3d, 
 0xdb, 0x46, 0xa3, 0x3e, 0x7d, 0x67, 0xf1, 0xbe, 0x74, 0xe8, 0x1d, 0x3e, 
 0x4d, 0xfc, 0xf4, 0x3e, 0x10, 0x06, 0x84, 0xbf, 0x1a, 0x6d, 0x32, 0x3f, 
 0x03, 0xd5, 0x31, 0xbd, 0x62, 0xf2, 0xff, 0xff, 0x04, 0x00, 0x00, 0x00, 
 0x00, 0x08, 0x00, 0x00, 0x68, 0x22, 0x9f, 0xbd, 0x78, 0xb4, 0x22, 0xbe, 
 0xf0, 0x67, 0x1b, 0x3f, 0xb5, 0x01, 0x84, 0xbd, 0xcb, 0x74, 0x26, 0x3e, 
 0x4f, 0x8d, 0xf5, 0xbe, 0xc2, 0xb6, 0x18, 0x3e, 0x3c, 0x53, 0x2e, 0x3e, 
 0x45, 0x1d, 0x10, 0xbf, 0xb1, 0x6b, 0xb4, 0x3e, 0x39, 0x10, 0xd5, 0xbd, 
 0xf7, 0x8a, 0x4f, 0xbe, 0x9a, 0x46, 0x35, 0x3e, 0x67, 0xcb, 0xcc, 0x3d, 
 0x7a, 0x1a, 0x82, 0xbc, 0x7e, 0x33, 0x8f, 0xbe, 0x92, 0x68, 0x39, 0x3c, 
 0x18, 0x18, 0xc2, 0x3e, 0xcb, 0xb3, 0x07, 0xbd, 0xf5, 0x8c, 0xa6, 0xbc, 
 0x1f, 0xa2, 0xee, 0x3e, 0xd8, 0x76, 0x90, 0x3d, 0x67, 0x2d, 0xa3, 0xbe, 
 0xfb, 0x94, 0x50, 0x3e, 0x25, 0x86, 0x20, 0xbd, 0x20, 0x48, 0xb3, 0xbe, 
 0x92, 0xe5, 0x82, 0x3e, 0xe8, 0xe7, 0xc2, 0xbd, 0x6e, 0xf3, 0x69, 0xbe, 
 0x25, 0x04, 0x33, 0xbe, 0xec, 0xf2, 0x88, 0xbd, 0xa7, 0x17, 0x07, 0xbf, 
 0x00, 0x64, 0x09, 0x3e, 0x10, 0x80, 0xb4, 0xbd, 0x38, 0x47, 0x4c, 0xbe, 
 0x12, 0x17, 0x05, 0xbf, 0x48, 0xde, 0xa4, 0x3e, 0xf3, 0xf8, 0x67, 0xbe, 
 0x53, 0xe5, 0x87, 0xbe, 0xc8, 0xc4, 0x00, 0xbe, 0x08, 0x08, 0x07, 0xbf, 
 0xfc, 0xcb, 0x16, 0x3d, 0x3f, 0xed, 0xb0, 0xbc, 0x65, 0xcb, 0xff, 0xba, 
 0x36, 0xee, 0x48, 0x3e, 0x0e, 0x06, 0x52, 0xbe, 0x7f, 0x75, 0x8e, 0xbc, 
 0xcb, 0x56, 0x46, 0xbe, 0x91, 0xf2, 0x78, 0xbc, 0x0c, 0x86, 0x72, 0x3e, 
 0x47, 0xaa, 0xdf, 0x3e, 0xc9, 0xc3, 0x05, 0x3f, 0xba, 0xed, 0x00, 0x3f, 
 0xba, 0xc7, 0x3e, 0x3e, 0x00, 0xe3, 0xe8, 0xbc, 0x0f, 0xb7, 0xd9, 0xbc, 
 0x8c, 0x6c, 0x98, 0xbe, 0x7f, 0x78, 0x85, 0xbd, 0xb3, 0x0f, 0x0c, 0x3f, 
 0x3a, 0x00, 0x85, 0xbe, 0xdf, 0x01, 0xad, 0xbd, 0x65, 0x13, 0x19, 0xbe, 
 0x4a, 0xda, 0x3a, 0x3e, 0x0c, 0x3b, 0x03, 0xbf, 0xb8, 0xe4, 0x4d, 0x3d, 
 0x6d, 0x33, 0xd7, 0x3e, 0x15, 0x74, 0x33, 0xbe, 0xc1, 0x5d, 0x17, 0xbf, 
 0x08, 0x35, 0xce, 0xbc, 0xb3, 0x49, 0x9e, 0xbe, 0x03, 0x55, 0x9f, 0xbc, 
 0x8d, 0x00, 0x90, 0xbd, 0x69, 0x83, 0x2f, 0x3e, 0x33, 0x8f, 0xb6, 0x3e, 
 0x76, 0xff, 0xc7, 0x3e, 0xd8, 0xdf, 0x75, 0x3e, 0xa5, 0x72, 0x9a, 0xbd, 
 0x2b, 0x81, 0x05, 0x3e, 0x80, 0x2e, 0x83, 0x3e, 0x10, 0xdc, 0x38, 0xbe, 
 0xf3, 0xb9, 0xb2, 0xbe, 0x0f, 0xcc, 0xe6, 0x3e, 0xd4, 0xc4, 0xe8, 0x3e, 
 0x0a, 0x92, 0x56, 0x3e, 0x93, 0xb6, 0xb1, 0x3d, 0xbf, 0x11, 0x94, 0x3e, 
 0xff, 0xe7, 0x88, 0x3e, 0x12, 0x54, 0x6a, 0xbe, 0xc8, 0x35, 0x91, 0xbe, 
 0x15, 0x31, 0xba, 0x3d, 0xaa, 0xf8, 0x8d, 0x3e, 0x46, 0x70, 0xfc, 0xbe, 
 0xe0, 0x49, 0x79, 0xbe, 0xef, 0x3c, 0x8c, 0xbd, 0x2b, 0xec, 0x8c, 0x3e, 
 0x15, 0x97, 0x42, 0xbe, 0xa7, 0x0d, 0x88, 0x3e, 0x00, 0x94, 0xa2, 0xbc, 
 0xe4, 0xee, 0x18, 0x3e, 0x2b, 0x36, 0xd4, 0x3e, 0x34, 0x09, 0x8d, 0x3e, 
 0xaf, 0x93, 0x40, 0x3e, 0xb5, 0x8a, 0xf2, 0xbc, 0xc0, 0xcb, 0xcd, 0xbd, 
 0xe7, 0x2b, 0x97, 0x3e, 0xb6, 0x54, 0x98, 0x3e, 0xdd, 0xc5, 0x97, 0x3d, 
 0x96, 0xbc, 0x6e, 0xbb, 0x79, 0xdb, 0x31, 0x3e, 0xea, 0x3c, 0x87, 0x3e, 
 0x91, 0x85, 0x90, 0xbe, 0x01, 0x4d, 0x8e, 0xbe, 0xc0, 0x7b, 0x2e, 0x3f, 
 0xa3, 0xc5, 0xf2, 0xbe, 0x07, 0x13, 0x03, 0xbe, 0xac, 0x51, 0x9a, 0xbd, 
 0x03, 0xd5, 0xaf, 0xbc, 0x2d, 0x1e, 0x5c, 0xbc, 0x5f, 0x29, 0x1c, 0x3d, 
 0xdf, 0xb8, 0x69, 0xbe, 0x31, 0x0f, 0xd9, 0x3e, 0x9a, 0xcd, 0x00, 0x3f, 
 0x5f, 0x16, 0x55, 0xbe, 0xec, 0x74, 0x03, 0x3f, 0xad, 0x42, 0xe2, 0x3b, 
 0x54, 0xfa, 0x95, 0x3e, 0xd0, 0xc0, 0xdd, 0xbc, 0x24, 0x9d, 0xa2, 0x3e, 
 0x49, 0x67, 0x0a, 0xbe, 0x91, 0xe3, 0xd6, 0x3c, 0xd0, 0xed, 0x2f, 0x3f, 
 0x6a, 0x39, 0x3f, 0xbd, 0x92, 0x4f, 0x06, 0xbe, 0xcc, 0x64, 0x6c, 0x3d, 
 0xc1, 0xfc, 0x04, 0xbe, 0x27, 0xc1, 0x3c, 0xbd, 0x24, 0x1a, 0x91, 0xbe, 
 0x7d, 0x4f, 0xce, 0x3e, 0x1b, 0xbe, 0xe8, 0x3e, 0x01, 0x6f, 0xe9, 0x3c, 
 0x93, 0x04, 0x0c, 0x3f, 0x5f, 0xdb, 0x8b, 0xbe, 0x88, 0xdb, 0x87, 0xbb, 
 0x08, 0x1d, 0xca, 0x3e, 0x9c, 0xd1, 0xfc, 0xbe, 0xec, 0x3e, 0x82, 0x3d, 
 0x98, 0x22, 0x5d, 0xbe, 0xe9, 0x80, 0xa3, 0x3e, 0x4f, 0xa6, 0x5c, 0x3e, 
 0x45, 0xe7, 0xf9, 0x3e, 0xbb, 0xa8, 0xfd, 0xbe, 0xa3, 0xb0, 0xdb, 0x3e, 
 0xa9, 0xa5, 0xfc, 0xbd, 0x2a, 0x38, 0xb9, 0xbd, 0xf6, 0xe6, 0xc9, 0xbe, 
 0xd0, 0x65, 0x8e, 0x3c, 0xbe, 0xa3, 0xa1, 0x3a, 0xa0, 0xa3, 0xa3, 0xbd, 
 0xf2, 0x0b, 0x62, 0x3e, 0x3a, 0x9b, 0xee, 0xbe, 0x06, 0x29, 0x48, 0xbe, 
 0xc3, 0xe0, 0x4f, 0xbe, 0x17, 0x66, 0x4b, 0xbe, 0x3e, 0x82, 0xd4, 0xbe, 
 0xa1, 0xfe, 0x31, 0x3e, 0xde, 0x4c, 0x11, 0xbd, 0xb0, 0xf5, 0xdb, 0xbd, 
 0xe9, 0xc5, 0xfc, 0x3e, 0x6b, 0xf3, 0xba, 0x3d, 0x0a, 0x25, 0x9b, 0xbe, 
 0xc0, 0x40, 0x5b, 0x3e, 0xbf, 0x09, 0x8f, 0x3e, 0xfb, 0x50, 0x4f, 0xbe, 
 0x7e, 0x4a, 0xa7, 0x3e, 0xbd, 0x17, 0x80, 0x3e, 0x8d, 0xeb, 0x6f, 0xbe, 
 0x35, 0x6e, 0xb0, 0x3e, 0x05, 0x3a, 0xff, 0x3d, 0xf8, 0x6a, 0x04, 0x3f, 
 0xb8, 0xab, 0x7b, 0x3e, 0x25, 0x7b, 0xd8, 0x3d, 0x36, 0x76, 0x99, 0x3b, 
 0x42, 0xb0, 0x07, 0x3f, 0x2e, 0x8f, 0x72, 0xbe, 0xf8, 0x58, 0x1e, 0x3f, 
 0x97, 0xdc, 0x81, 0xbb, 0x7b, 0xa5, 0x0f, 0x3f, 0x66, 0xd3, 0x2e, 0xbc, 
 0x91, 0x5c, 0xc5, 0xbe, 0x77, 0x6d, 0x79, 0x3e, 0xa0, 0xc3, 0x65, 0x3c, 
 0xfb, 0x86, 0x01, 0xbe, 0x61, 0x13, 0x31, 0xbe, 0xf7, 0x87, 0x14, 0x3e, 
 0xa4, 0x8d, 0xdb, 0xbd, 0x8f, 0x4d, 0x2f, 0xbf, 0xe2, 0x88, 0x97, 0x3e, 
 0x49, 0x43, 0xc7, 0xbe, 0xad, 0xbf, 0xbc, 0xbd, 0x0d, 0x56, 0x07, 0x3d, 
 0x4e, 0x88, 0x9d, 0x3d, 0x61, 0xe5, 0x6b, 0x3e, 0x3b, 0xf7, 0x02, 0x3f, 
 0xbb, 0x53, 0x09, 0x3f, 0x56, 0xed, 0xf3, 0x3e, 0x8f, 0x84, 0x81, 0x3d, 
 0x8e, 0x9e, 0xf3, 0x3e, 0x80, 0x6e, 0x5c, 0x3e, 0x19, 0x4a, 0x10, 0x3e, 
 0x70, 0xb9, 0x58, 0x3e, 0xde, 0x6f, 0x20, 0x3f, 0xbb, 0xb2, 0x19, 0x3e, 
 0xa8, 0xf5, 0x02, 0x3c, 0xe3, 0xe3, 0xc0, 0x3e, 0x82, 0xde, 0x86, 0x3e, 
 0xb7, 0x4d, 0x93, 0x3e, 0xb4, 0x58, 0xa2, 0xbe, 0x6f, 0x40, 0xff, 0xbe, 
 0xee, 0x3d, 0x2a, 0x3d, 0x83, 0xaa, 0x86, 0xbe, 0xcb, 0x4e, 0xca, 0xbd, 
 0x21, 0x8d, 0xf0, 0xbe, 0x43, 0xdc, 0x9e, 0x3e, 0x59, 0xf8, 0x20, 0xbf, 
 0x95, 0x96, 0x82, 0x3e, 0x4e, 0xe9, 0x6e, 0xbe, 0x03, 0xda, 0x58, 0x3e, 
 0x4c, 0x64, 0x89, 0xbe, 0xac, 0x1b, 0xe6, 0xbe, 0x8c, 0x63, 0xa7, 0xbe, 
 0xef, 0x9f, 0x6a, 0xbe, 0x5d, 0xb5, 0xfb, 0x3c, 0x61, 0x0b, 0x07, 0x3d, 
 0xaf, 0xa0, 0x1e, 0x3f, 0x66, 0xf4, 0x96, 0x3e, 0xb4, 0x6f, 0x86, 0xbe, 
 0xbe, 0x18, 0x9a, 0x3e, 0xbf, 0x10, 0x80, 0x3e, 0x98, 0xbc, 0x03, 0x3f, 
 0x4f, 0xa3, 0x87, 0xbe, 0x9b, 0xd4, 0x02, 0xbf, 0x61, 0xa4, 0xc7, 0x3e, 
 0xfd, 0x15, 0x6f, 0xbe, 0xa1, 0x18, 0xf0, 0x3e, 0x0b, 0x83, 0xff, 0x3d, 
 0x8f, 0x04, 0x8b, 0x3e, 0xc6, 0xf6, 0x1d, 0xbf, 0x4d, 0x0b, 0x91, 0xbd, 
 0x06, 0x8f, 0xe5, 0x3c, 0xf6, 0x6c, 0x3c, 0xbe, 0x8f, 0xcb, 0x33, 0xbe, 
 0xca, 0x94, 0x88, 0xbe, 0x6b, 0x66, 0x0b, 0x3e, 0x82, 0xda, 0x01, 0x3d, 
 0xa0, 0xa9, 0x2c, 0xbc, 0x8f, 0xca, 0x18, 0xbf, 0x1f, 0xaf, 0x0f, 0xbe, 
 0xf1, 0xc9, 0x1a, 0xbe, 0x28, 0x8a, 0x42, 0x3d, 0xe7, 0x89, 0x0a, 0x3d, 
 0x56, 0x16, 0x0d, 0x3e, 0xb6, 0x6a, 0x8f, 0x3e, 0x81, 0x31, 0x34, 0x3e, 
 0xdd, 0xd0, 0x5e, 0x3e, 0x6f, 0x74, 0x11, 0xbd, 0xa6, 0x31, 0xc7, 0xbd, 
 0x40, 0x7d, 0x9c, 0x3e, 0xf8, 0x31, 0x52, 0xbc, 0xa7, 0xd9, 0x07, 0xbe, 
 0x4c, 0x3e, 0x7c, 0xbe, 0x58, 0xbe, 0x61, 0x3e, 0x9d, 0x2f, 0x43, 0xbe, 
 0x18, 0xe2, 0xb0, 0x3d, 0x35, 0x30, 0x1e, 0xbe, 0x05, 0x59, 0x06, 0x3f, 
 0x01, 0x55, 0x14, 0xbe, 0xe5, 0xbd, 0x49, 0xbe, 0x57, 0x2a, 0x61, 0xbd, 
 0xb8, 0xcd, 0x67, 0x3e, 0xbf, 0xc6, 0xe0, 0xbc, 0xf3, 0x77, 0x24, 0xbe, 
 0xb5, 0x08, 0x49, 0xbe, 0x9e, 0x96, 0x50, 0x3e, 0x19, 0x95, 0xdd, 0x3c, 
 0x1f, 0xff, 0x8b, 0x3e, 0xeb, 0x4d, 0x39, 0xbe, 0xf2, 0xdc, 0x6f, 0x3e, 
 0xbe, 0xe6, 0x84, 0xbe, 0x31, 0xa6, 0xaa, 0x3e, 0x65, 0x11, 0x76, 0x3e, 
 0x82, 0x80, 0xf4, 0x3d, 0xd9, 0x17, 0x3b, 0x3f, 0xed, 0x12, 0xd7, 0x3e, 
 0xb5, 0xc4, 0x8c, 0x3c, 0x4a, 0x1a, 0x13, 0x3e, 0x31, 0xd4, 0xbd, 0x3e, 
 0x5b, 0xc2, 0x22, 0x3f, 0x11, 0x7a, 0xe2, 0x3d, 0xf7, 0x4a, 0x3a, 0xbe, 
 0xe4, 0x1d, 0x77, 0x3e, 0x0a, 0x62, 0x05, 0x3e, 0x49, 0x3a, 0x33, 0xbe, 
 0x76, 0x60, 0x20, 0x3e, 0xdd, 0x61, 0x0e, 0x3d, 0x34, 0xbe, 0x07, 0x3e, 
 0xb9, 0xbe, 0x03, 0xbf, 0x43, 0x89, 0x95, 0x3d, 0xc9, 0xb5, 0xc9, 0x3d, 
 0xcd, 0x97, 0x99, 0xbe, 0x61, 0xb7, 0x5b, 0xbe, 0x9d, 0x65, 0x38, 0x3e, 
 0xda, 0xe4, 0x85, 0xbd, 0x45, 0xa0, 0x12, 0x3f, 0x96, 0xe3, 0xf6, 0x3e, 
 0xee, 0xa6, 0x25, 0xbe, 0x5e, 0x03, 0x11, 0x3f, 0xda, 0x96, 0x22, 0x3f, 
 0xf8, 0xb8, 0x00, 0x3f, 0xb0, 0xfe, 0xdc, 0xbd, 0x67, 0x94, 0x1c, 0x3f, 
 0xd8, 0x30, 0x1c, 0xbd, 0xe4, 0x59, 0xc3, 0x3d, 0x5e, 0xc7, 0x11, 0x3f, 
 0x3a, 0x0c, 0x8e, 0x3e, 0x83, 0xce, 0x1c, 0x3e, 0xef, 0x58, 0x8c, 0x3e, 
 0x78, 0x98, 0x42, 0xbe, 0xd0, 0xab, 0x38, 0x3b, 0xbd, 0x96, 0x43, 0x3e, 
 0x3a, 0x39, 0xb1, 0x3e, 0xb3, 0xd8, 0x7f, 0xbe, 0x2a, 0x43, 0xf2, 0xbe, 
 0xf9, 0x98, 0x72, 0xbe, 0x84, 0xb3, 0x4d, 0x3e, 0x20, 0x5b, 0x59, 0x3e, 
 0xe5, 0xde, 0x4a, 0xbe, 0x5a, 0xb1, 0x8a, 0x3d, 0xfb, 0x96, 0x88, 0xbe, 
 0xf5, 0xa0, 0x85, 0xbe, 0x1c, 0xce, 0xb9, 0xbd, 0x2c, 0x58, 0xfa, 0x3d, 
 0x31, 0xf9, 0x67, 0x3e, 0x90, 0x48, 0x0c, 0xbf, 0xd6, 0xb5, 0x42, 0xbd, 
 0x4c, 0x0c, 0xf4, 0x3d, 0x96, 0xf4, 0xba, 0x3e, 0x28, 0xde, 0x11, 0xbf, 
 0xa0, 0x84, 0x8d, 0xbe, 0x7c, 0xb5, 0x81, 0x3e, 0x51, 0x00, 0xa7, 0x3e, 
 0xb1, 0x91, 0xa3, 0x3e, 0xb5, 0xbe, 0xef, 0x3e, 0x00, 0x50, 0x4c, 0x3a, 
 0x0f, 0x5e, 0x63, 0xbe, 0xf6, 0x66, 0x78, 0xbe, 0x3f, 0xc3, 0x0a, 0x3b, 
 0xad, 0xf4, 0x3e, 0x3f, 0xda, 0x27, 0x17, 0xbe, 0x53, 0xe3, 0xbb, 0xbe, 
 0xc4, 0x35, 0xb0, 0x3e, 0xdc, 0x0e, 0x10, 0x3f, 0xb0, 0x6e, 0xa6, 0xbe, 
 0xa4, 0x8f, 0x30, 0xbd, 0xd5, 0x38, 0x4b, 0x3e, 0x30, 0x79, 0x2b, 0x3d, 
 0xc0, 0x2d, 0x30, 0x3d, 0x46, 0xab, 0x70, 0x3e, 0x77, 0xef, 0x5b, 0x3e, 
 0xf2, 0x23, 0xd1, 0x3e, 0x2f, 0x0e, 0x97, 0x3e, 0xc2, 0x94, 0x3a, 0x3f, 
 0xf8, 0x1a, 0x65, 0xbd, 0x18, 0x0a, 0x31, 0xbe, 0x29, 0xca, 0x38, 0x3e, 
 0x37, 0xea, 0x6c, 0x3f, 0x60, 0x19, 0xa9, 0xbe, 0xcd, 0x94, 0x2c, 0x3f, 
 0x73, 0xdf, 0xf9, 0xbd, 0x7f, 0x50, 0x12, 0x3f, 0x2a, 0xea, 0x92, 0x3d, 
 0x14, 0x93, 0x07, 0xbf, 0xa6, 0xaf, 0x90, 0xbe, 0x10, 0xc5, 0xb5, 0xbd, 
 0x1f, 0xb9, 0x88, 0x3e, 0xa5, 0xb9, 0x05, 0xbe, 0xfc, 0xfa, 0xdc, 0xbd, 
 0x64, 0x0e, 0x87, 0xbe, 0x36, 0x19, 0xa1, 0xbc, 0x89, 0xe4, 0xf7, 0x3e, 
 0x55, 0xfa, 0xee, 0x3d, 0x8b, 0x79, 0x52, 0xbe, 0x4a, 0x88, 0x60, 0x3e, 
 0xb6, 0x00, 0x04, 0x3f, 0xab, 0x7b, 0x1a, 0xbe, 0x56, 0x58, 0xb0, 0xbe, 
 0x3a, 0xd6, 0xb8, 0x3e, 0xa9, 0x33, 0x9f, 0xbe, 0xc0, 0x8c, 0x1e, 0x3e, 
 0x42, 0x1e, 0x06, 0x3d, 0xeb, 0xb1, 0x7c, 0xbe, 0x45, 0x37, 0x1e, 0x3f, 
 0x89, 0x33, 0xd9, 0x3d, 0x7a, 0xe3, 0x78, 0xbd, 0xa4, 0x37, 0x56, 0x3d, 
 0x4a, 0xbd, 0x1e, 0xbe, 0xe1, 0x6f, 0xcb, 0x3d, 0x8e, 0x4c, 0x69, 0x3e, 
 0x20, 0x9f, 0x5f, 0xbd, 0x1e, 0x57, 0x10, 0x3f, 0xc2, 0xce, 0x15, 0xbe, 
 0xdc, 0x17, 0x4b, 0xbe, 0xb4, 0x51, 0x37, 0x3f, 0x02, 0x5b, 0xe3, 0xbd, 
 0xfb, 0x7c, 0xc8, 0xbd, 0xd8, 0x13, 0xcd, 0x3d, 0x35, 0xca, 0x6e, 0x3e, 
 0x14, 0x05, 0x2d, 0xbe, 0x20, 0xb5, 0x70, 0xbe, 0x24, 0x5a, 0xc7, 0x3e, 
 0x29, 0x6d, 0xb4, 0xbe, 0x5d, 0x8c, 0x8a, 0xbe, 0x58, 0x3a, 0x1d, 0x3e, 
 0x72, 0x57, 0xaa, 0x3d, 0xb9, 0x68, 0xb8, 0xbe, 0xe2, 0x9a, 0x90, 0xbe, 
 0x54, 0xbe, 0x6e, 0x3e, 0x06, 0x65, 0xb1, 0x3c, 0x5b, 0x87, 0x58, 0x3e, 
 0x02, 0x89, 0xa7, 0x3e, 0x60, 0xef, 0x3e, 0xbe, 0xde, 0x6a, 0x99, 0x3d, 
 0xb5, 0x43, 0x54, 0x3e, 0xff, 0xc0, 0xea, 0xbe, 0xaa, 0x9f, 0x0c, 0x3f, 
 0xa1, 0xad, 0xa2, 0xbe, 0xce, 0x76, 0x7f, 0x3c, 0x49, 0x54, 0x89, 0x3e, 
 0x22, 0xe2, 0x66, 0x3e, 0x3d, 0x90, 0x60, 0xbe, 0xcf, 0x2b, 0x39, 0xbe, 
 0x6a, 0x1f, 0xbc, 0x3c, 0xbf, 0xf3, 0x93, 0xbe, 0x61, 0xd7, 0x6d, 0x3d, 
 0x5f, 0x73, 0xdc, 0xbd, 0xac, 0x03, 0x9c, 0x3e, 0xdc, 0xba, 0x9a, 0xbe, 
 0x75, 0x26, 0xad, 0xbe, 0xb2, 0x56, 0xdb, 0xbe, 0x9c, 0x4b, 0xc7, 0x3d, 
 0xde, 0xb7, 0x5e, 0x3e, 0x23, 0xe9, 0x90, 0x3e, 0x1c, 0x48, 0x62, 0x3e, 
 0x9e, 0x8a, 0xd0, 0x3e, 0x23, 0x99, 0x0f, 0x3d, 0x7c, 0x95, 0x98, 0xbc, 
 0xc2, 0x43, 0x88, 0xbe, 0x00, 0x83, 0x10, 0x3f, 0xbd, 0x8d, 0x3d, 0xbe, 
 0xec, 0xc5, 0x4a, 0xbe, 0xb8, 0x36, 0x9f, 0x3e, 0x3b, 0xff, 0x5f, 0xbe, 
 0x87, 0xe6, 0xaf, 0x3e, 0x7f, 0x03, 0x49, 0xbe, 0xdc, 0x75, 0xd0, 0x3e, 
 0xdb, 0xfc, 0x2c, 0x3f, 0xce, 0xf0, 0x89, 0xbc, 0xa0, 0xa7, 0x0d, 0xbe, 
 0x7e, 0x92, 0xb1, 0xbe, 0x73, 0xfd, 0xb1, 0xbe, 0xed, 0x1f, 0xe6, 0x3d, 
 0x7c, 0x27, 0xfb, 0x3e, 0x0b, 0x6e, 0x95, 0xbb, 0x4f, 0x72, 0x5a, 0x3d, 
 0x00, 0x98, 0xc8, 0x3e, 0x16, 0x78, 0x3a, 0x3e, 0xe9, 0x17, 0x88, 0x3e, 
 0x6d, 0xec, 0xe8, 0x3e, 0xd4, 0xa4, 0x09, 0x3f, 0x56, 0x1b, 0x7c, 0xbe, 
 0xad, 0x0a, 0x20, 0x3f, 0xc8, 0xe7, 0x41, 0x3d, 0xbc, 0x2a, 0xaf, 0x3e, 
 0x74, 0x71, 0xf2, 0x3e, 0x32, 0xab, 0x95, 0xbb, 0x57, 0x6f, 0x01, 0xbe, 
 0xd1, 0xf7, 0x83, 0x3e, 0x95, 0x46, 0x95, 0x3e, 0x0b, 0xf0, 0xb3, 0xbe, 
 0xf2, 0x88, 0x0e, 0xbf, 0xe2, 0x5d, 0x12, 0x3c, 0x2f, 0x8e, 0xc7, 0x3e, 
 0xec, 0xaf, 0x3d, 0x3d, 0xcc, 0xb8, 0x6c, 0x3e, 0x0a, 0x01, 0x48, 0x3d, 
 0xd3, 0xfe, 0xd7, 0x3e, 0x69, 0x61, 0x0c, 0xbe, 0x5b, 0x6e, 0x05, 0xbf, 
 0x43, 0x3c, 0x94, 0x3d, 0xcd, 0x7f, 0x41, 0x3e, 0x5e, 0x2d, 0x8f, 0x3d, 
 0xb1, 0x06, 0xa4, 0x3e, 0xcc, 0x00, 0x59, 0x3e, 0x44, 0x0b, 0xd1, 0xbd, 
 0x95, 0x16, 0x30, 0x3d, 0x0c, 0x1a, 0xd5, 0xbe, 0x45, 0x28, 0x80, 0xbe, 
 0x85, 0x28, 0x7b, 0x3e, 0x71, 0xa1, 0xc3, 0xbe, 0xb6, 0xda, 0x03, 0xbe, 
 0xc1, 0xed, 0x4c, 0xbd, 0x7a, 0xb7, 0xa3, 0xbe, 0xea, 0x15, 0x07, 0xbf, 
 0x6e, 0xfa, 0xff, 0xff, 0x04, 0x00, 0x00, 0x00, 0x00, 0x04, 0x00, 0x00, 
 0xf8, 0xe8, 0xdc, 0xbd, 0xce, 0xad, 0x85, 0xbe, 0xc4, 0x5b, 0x87, 0xbe, 
 0x1c, 0xc5, 0x77, 0xbe, 0xb6, 0x68, 0x54, 0xbe, 0x44, 0x2d, 0x5a, 0x3e, 
 0x17, 0x15, 0x11, 0xbe, 0x68, 0x66, 0xeb, 0xbd, 0x93, 0x1c, 0xcb, 0xbe, 
 0xa9, 0x24, 0x97, 0xbb, 0x8b, 0x57, 0x26, 0xbd, 0xe3, 0x35, 0x9a, 0x3e, 
 0xea, 0x46, 0x89, 0xbb, 0xb2, 0x3a, 0x90, 0xbe, 0xc1, 0xf9, 0xcd, 0x3d, 
 0xce, 0x40, 0xa5, 0xbe, 0xa3, 0x59, 0xd1, 0x3c, 0x35, 0x30, 0x8c, 0x3e, 
 0x6d, 0xe3, 0x09, 0xbe, 0xc6, 0xec, 0x25, 0xbe, 0x69, 0x7e, 0x29, 0xbf, 
 0x5d, 0x31, 0x83, 0x3e, 0xf2, 0xc7, 0x97, 0x3e, 0x6a, 0xc1, 0xdb, 0x3e, 
 0xbf, 0x19, 0xc6, 0xbd, 0xaf, 0x31, 0x53, 0xbd, 0x97, 0x1a, 0x2d, 0xbd, 
 0x96, 0x72, 0x0b, 0xbf, 0xa7, 0x45, 0xb5, 0x3c, 0x6b, 0x21, 0x93, 0x3e, 
 0x2d, 0x83, 0xcb, 0x3d, 0x40, 0xa8, 0x81, 0x3e, 0xd9, 0x91, 0xf0, 0xbd, 
 0x28, 0x11, 0xb9, 0x3e, 0x61, 0x6e, 0x49, 0x3e, 0xf7, 0x70, 0x52, 0xbe, 
 0xf1, 0xf0, 0xf6, 0x3e, 0x63, 0xbf, 0x4e, 0xbe, 0x41, 0xad, 0xc7, 0x3d, 
 0x54, 0xde, 0xe7, 0x3c, 0xff, 0x41, 0x48, 0x3d, 0xa0, 0xce, 0x64, 0x3d, 
 0x5d, 0x4a, 0x56, 0x3e, 0xd8, 0x10, 0xac, 0xbe, 0x0c, 0x20, 0x16, 0x3d, 
 0x28, 0x37, 0xd3, 0xbd, 0x6e, 0xdb, 0xc2, 0xbd, 0x9c, 0x0c, 0x98, 0x3e, 
 0xb6, 0x52, 0x19, 0xbe, 0xab, 0xe3, 0xd7, 0xbe, 0xe3, 0xd3, 0xcb, 0x3d, 
 0x4a, 0xd7, 0xc8, 0xbe, 0x2a, 0x23, 0x87, 0xbb, 0xd4, 0xf0, 0x42, 0xbd, 
 0xd2, 0x16, 0x3d, 0x3e, 0x8b, 0xcd, 0x9f, 0xbc, 0x77, 0x16, 0x8d, 0xbe, 
 0x48, 0x41, 0xc7, 0xbd, 0x85, 0xea, 0x41, 0xbe, 0x2d, 0x41, 0x45, 0xbd, 
 0xb1, 0x51, 0xe7, 0x3e, 0xa0, 0xce, 0x2d, 0xbe, 0x38, 0x33, 0x12, 0x3e, 
 0x89, 0x92, 0xd8, 0x3e, 0x72, 0x53, 0x7a, 0x3e, 0x78, 0xe3, 0x76, 0xbe, 
 0x4e, 0x8b, 0x92, 0xbe, 0xd0, 0xe9, 0xfe, 0xbe, 0x3d, 0xeb, 0x1d, 0x3f, 
 0x0a, 0x8a, 0x8b, 0x3e, 0x3c, 0xf3, 0x14, 0x3e, 0xef, 0xe6, 0x10, 0x3e, 
 0x64, 0x27, 0x88, 0xbc, 0x55, 0x62, 0xab, 0x3d, 0x21, 0x0d, 0xbf, 0x3e, 
 0xfd, 0x92, 0x7a, 0x3e, 0x00, 0x6f, 0x6f, 0xbe, 0x69, 0x06, 0xa8, 0x3d, 
 0x1f, 0x46, 0x32, 0x3e, 0x16, 0x49, 0x2b, 0x3e, 0x5a, 0x2f, 0x6c, 0xbe, 
 0xd6, 0x2d, 0x00, 0xbf, 0xf8, 0xc6, 0x93, 0x3e, 0x2d, 0xfe, 0xd8, 0xbd, 
 0x99, 0xa8, 0x4d, 0x3e, 0x0d, 0x30, 0xc4, 0xbe, 0x44, 0x6b, 0xfd, 0xbe, 
 0xe6, 0xec, 0x84, 0x3e, 0xde, 0x0a, 0x97, 0x3e, 0x2a, 0x70, 0xde, 0xbd, 
 0x8d, 0x5b, 0x97, 0xbe, 0x76, 0xb4, 0xa7, 0x3e, 0x55, 0xe6, 0x39, 0x3f, 
 0xb6, 0xd5, 0xb4, 0x3e, 0x30, 0x24, 0x99, 0x3e, 0x18, 0x27, 0xad, 0xbb, 
 0x4b, 0xe8, 0xc1, 0x3d, 0x91, 0x61, 0x5c, 0xbd, 0xb2, 0x91, 0xdb, 0x3d, 
 0x5f, 0x3d, 0xe6, 0x3e, 0xed, 0x42, 0x9c, 0xbb, 0xd1, 0x5b, 0x44, 0x3e, 
 0x60, 0x59, 0xae, 0x3e, 0x5d, 0xaf, 0x5f, 0xbe, 0x00, 0x19, 0x7c, 0x3e, 
 0x6e, 0x5e, 0x28, 0xbd, 0xab, 0x6a, 0xd7, 0x3d, 0xc6, 0x83, 0x50, 0xbe, 
 0x8d, 0x87, 0x7d, 0x3e, 0x86, 0xb9, 0x96, 0x3e, 0xa1, 0xd7, 0x04, 0xbc, 
 0x33, 0x43, 0x6b, 0x3e, 0xb3, 0x84, 0x75, 0xbd, 0x59, 0xaa, 0x2c, 0x3e, 
 0x9b, 0xcf, 0x8b, 0xbb, 0x84, 0x85, 0x06, 0x3f, 0xfc, 0xa5, 0x6a, 0x3e, 
 0x62, 0xa7, 0x8c, 0xba, 0x09, 0x81, 0xf0, 0x3e, 0x09, 0xae, 0xc8, 0x3e, 
 0x8e, 0x3c, 0x14, 0x3e, 0x52, 0x80, 0xd9, 0xbe, 0x6e, 0x3a, 0x8b, 0xbe, 
 0xca, 0x61, 0x8f, 0xbe, 0x53, 0x44, 0x35, 0xbe, 0x87, 0xed, 0x2a, 0xbc, 
 0x33, 0x01, 0xaf, 0xbe, 0x11, 0x7e, 0x4b, 0x3e, 0x91, 0x92, 0xa2, 0xbe, 
 0x44, 0xba, 0xac, 0xbd, 0xbb, 0x53, 0x98, 0x3e, 0xab, 0x1b, 0x1e, 0xbf, 
 0x24, 0x47, 0xcc, 0x3e, 0x7f, 0x0c, 0x82, 0x3e, 0x58, 0x57, 0xb4, 0xbd, 
 0xec, 0x61, 0xce, 0x3e, 0x5f, 0x06, 0x42, 0xbe, 0x56, 0xd0, 0xc8, 0xbd, 
 0xec, 0xd4, 0x42, 0x3e, 0x9c, 0xa2, 0x2b, 0x3f, 0x66, 0x5e, 0x04, 0xbe, 
 0xe4, 0x91, 0xac, 0x3e, 0x82, 0x19, 0x4b, 0x3d, 0xe0, 0x2c, 0x8e, 0x3e, 
 0xcb, 0xe7, 0x35, 0x3e, 0x93, 0x98, 0xfe, 0xbc, 0xd4, 0xb3, 0xe0, 0xbc, 
 0x3e, 0x34, 0xd1, 0x3e, 0x4b, 0x09, 0x52, 0x3f, 0x5b, 0xa3, 0xbe, 0xbd, 
 0x67, 0xae, 0xc8, 0xbd, 0x9d, 0xa7, 0x3b, 0xbe, 0xb2, 0x05, 0x52, 0xbc, 
 0xb6, 0xb7, 0x75, 0x3e, 0x08, 0xe6, 0xd8, 0x3e, 0x23, 0x7a, 0xc6, 0x3e, 
 0xa9, 0x3e, 0x34, 0xbe, 0xf1, 0x9a, 0xa7, 0x3e, 0x45, 0x66, 0xc5, 0xbe, 
 0x65, 0xbd, 0xb9, 0xbe, 0xb6, 0xb2, 0xab, 0x3e, 0xb8, 0xaf, 0xcf, 0x3e, 
 0x46, 0x7b, 0x89, 0xbe, 0x7d, 0x3a, 0x0d, 0x3f, 0xa6, 0x58, 0x04, 0x3e, 
 0x5b, 0xcc, 0x6d, 0x3e, 0xca, 0x58, 0xa8, 0x3e, 0xe1, 0xb5, 0xdc, 0x3e, 
 0xc7, 0x01, 0x0d, 0x3d, 0x51, 0x72, 0x82, 0x3d, 0x40, 0x3d, 0x16, 0x3d, 
 0xc5, 0xbe, 0xec, 0x3e, 0x8c, 0x0d, 0xb0, 0x3d, 0xee, 0xf9, 0xe9, 0x3e, 
 0x0d, 0x66, 0xdb, 0x3d, 0x93, 0x3e, 0x73, 0x3e, 0xf7, 0xc3, 0x42, 0xbe, 
 0x78, 0xda, 0xa6, 0x3d, 0xe5, 0x03, 0x5c, 0xbd, 0xcb, 0x77, 0x11, 0xbe, 
 0x97, 0xba, 0x3c, 0x3f, 0x32, 0xd0, 0x2f, 0x3e, 0x13, 0xd0, 0x2a, 0x3e, 
 0xce, 0xa1, 0xc4, 0xbd, 0x46, 0x6b, 0x20, 0x3e, 0x89, 0x2d, 0xcf, 0xbe, 
 0xd9, 0xb6, 0x7f, 0xbd, 0xaf, 0x03, 0xb3, 0xbd, 0x81, 0x45, 0xca, 0xbe, 
 0xe0, 0x80, 0x96, 0xbe, 0x20, 0xe9, 0x95, 0xbe, 0x5f, 0x36, 0x09, 0x3e, 
 0xed, 0x69, 0xad, 0x3e, 0xb6, 0x78, 0x40, 0xbd, 0x49, 0x0a, 0xa8, 0x3d, 
 0x75, 0xa0, 0xd2, 0xbe, 0xf2, 0x87, 0x18, 0x3f, 0x91, 0xf1, 0x7b, 0xbe, 
 0x4c, 0x39, 0x51, 0x3e, 0xdc, 0xd9, 0x89, 0xbe, 0xc3, 0x94, 0x33, 0xbe, 
 0x03, 0xa5, 0xb8, 0xbe, 0xaa, 0x65, 0xe1, 0x3e, 0x04, 0xb4, 0xb6, 0xbe, 
 0x33, 0x76, 0xe9, 0xbd, 0xaf, 0x0c, 0x35, 0x3e, 0xa0, 0xc5, 0x6e, 0x3e, 
 0xed, 0xe9, 0x84, 0xbc, 0xa1, 0x83, 0x4e, 0xbe, 0x3f, 0xd9, 0xdb, 0x3c, 
 0x14, 0x6f, 0xa9, 0x3e, 0x7f, 0x8c, 0x0e, 0x3f, 0x9b, 0x58, 0x38, 0x3f, 
 0x5c, 0x67, 0x08, 0xbe, 0x23, 0x13, 0x5e, 0xbd, 0x0c, 0xae, 0x98, 0x3e, 
 0xa8, 0xb9, 0x7f, 0xbe, 0x89, 0xa9, 0xac, 0x3e, 0x32, 0x5f, 0x65, 0x3e, 
 0x46, 0xcd, 0x19, 0xbf, 0xe5, 0x04, 0xb7, 0x3e, 0xa0, 0xec, 0x18, 0x3e, 
 0x76, 0x06, 0xc9, 0xbd, 0x4c, 0xc6, 0xf3, 0x3d, 0x82, 0x1d, 0xbf, 0x3e, 
 0x33, 0x32, 0x7a, 0xbe, 0x7d, 0x5e, 0x68, 0x3e, 0xbb, 0x91, 0xd3, 0xbe, 
 0x44, 0xee, 0x8d, 0xbd, 0x74, 0x3a, 0x9f, 0xbe, 0xa1, 0xf8, 0x3e, 0x3e, 
 0x5f, 0xdb, 0x5b, 0x3e, 0xbf, 0xae, 0xbb, 0x3d, 0xc2, 0xb1, 0x93, 0x3e, 
 0x98, 0xa8, 0x8b, 0x3e, 0xbd, 0x6f, 0x2f, 0xbf, 0x8d, 0x88, 0x3d, 0x3e, 
 0x77, 0x67, 0x93, 0x3e, 0xd5, 0xc8, 0x23, 0x3e, 0x78, 0x60, 0xb8, 0xbc, 
 0x0e, 0x3f, 0xac, 0xbe, 0xa2, 0x6a, 0x0c, 0xbe, 0xa6, 0x2b, 0xc5, 0xbe, 
 0x00, 0x86, 0xa3, 0x3a, 0x9c, 0x70, 0xa2, 0x3d, 0x50, 0xb2, 0xa3, 0xbe, 
 0x10, 0x4c, 0x3e, 0x3e, 0x7b, 0xf0, 0x91, 0xbe, 0x76, 0xca, 0xbf, 0x3e, 
 0xea, 0x90, 0xa2, 0x3d, 0x29, 0xb7, 0x50, 0xbe, 0xbb, 0xea, 0x18, 0xbf, 
 0xc8, 0xb8, 0xce, 0x3e, 0x8f, 0x60, 0xe9, 0x3d, 0xbf, 0x7b, 0x90, 0x3d, 
 0x2b, 0xe3, 0x7d, 0xbd, 0x7a, 0xfe, 0xff, 0xff, 0x04, 0x00, 0x00, 0x00, 
 0x80, 0x00, 0x00, 0x00, 0x00, 0x00, 0x00, 0x00, 0x2a, 0x6d, 0x57, 0xbd, 
 0x1c, 0x12, 0xe3, 0x3e, 0xcd, 0x8c, 0x9b, 0x3e, 0x55, 0x14, 0x11, 0x3c, 
 0x3b, 0xd2, 0x26, 0x3e, 0x40, 0x3e, 0x11, 0xbd, 0xfe, 0xcc, 0xe1, 0xbc, 
 0x19, 0xb6, 0x67, 0x3b, 0xdf, 0xe7, 0x78, 0x3e, 0x3e, 0x7f, 0xc5, 0xbc, 
 0x09, 0x45, 0x0c, 0xbe, 0x92, 0xf3, 0xf5, 0x3d, 0xd4, 0x08, 0x1f, 0xbd, 
 0x5a, 0x6a, 0x89, 0xbc, 0x56, 0x57, 0x6b, 0xbd, 0x7e, 0x8a, 0xdf, 0x3c, 
 0x18, 0xa0, 0x35, 0xbd, 0xcc, 0x50, 0x9d, 0xbd, 0xcd, 0xb4, 0xa8, 0xbd, 
 0x7b, 0xce, 0x93, 0x3d, 0x4b, 0x25, 0xc8, 0x3d, 0x31, 0x9a, 0x7c, 0xbd, 
 0x20, 0xd6, 0x9f, 0xbd, 0x06, 0x40, 0x92, 0x3d, 0xb1, 0xaa, 0xc4, 0x3d, 
 0x24, 0x84, 0x32, 0xbe, 0x18, 0x12, 0x12, 0x3e, 0x8e, 0x15, 0xa5, 0x3e, 
 0xca, 0xfc, 0x12, 0x3e, 0x00, 0x00, 0x00, 0x00, 0xca, 0x99, 0x2f, 0x3e, 
 0x06, 0xff, 0xff, 0xff, 0x04, 0x00, 0x00, 0x00, 0x0c, 0x00, 0x00, 0x00, 
 0xc6, 0x44, 0xf4, 0xbc, 0x81, 0x38, 0x3d, 0x3e, 0x37, 0xf8, 0x22, 0xbe, 
 0x1e, 0xff, 0xff, 0xff, 0x04, 0x00, 0x00, 0x00, 0x40, 0x00, 0x00, 0x00, 
 0x75, 0xf4, 0xf5, 0x3d, 0xe9, 0x55, 0xd3, 0xbc, 0x64, 0x9d, 0x93, 0xbd, 
 0x8a, 0x8e, 0x15, 0x3e, 0xb4, 0xbf, 0x80, 0x3e, 0x8d, 0x67, 0x26, 0xbe, 
 0x19, 0xad, 0xa1, 0xbd, 0x36, 0x98, 0x88, 0x3e, 0x34, 0x5b, 0x31, 0xbd, 
 0x24, 0x89, 0x46, 0x3e, 0xb5, 0x50, 0x8b, 0x3e, 0x9d, 0xf8, 0x68, 0xbe, 
 0xb1, 0xc2, 0xe5, 0xbd, 0x75, 0xcc, 0x39, 0x3e, 0xec, 0x09, 0x30, 0x3d, 
 0x5f, 0x5b, 0x09, 0x3e, 0x5c, 0xfa, 0xff, 0xff, 0x60, 0xfa, 0xff, 0xff, 
 0x0f, 0x00, 0x00, 0x00, 0x4d, 0x4c, 0x49, 0x52, 0x20, 0x43, 0x6f, 0x6e, 
 0x76, 0x65, 0x72, 0x74, 0x65, 0x64, 0x2e, 0x00, 0x01, 0x00, 0x00, 0x00, 
 0x14, 0x00, 0x00, 0x00, 0x00, 0x00, 0x0e, 0x00, 0x18, 0x00, 0x14, 0x00, 
 0x10, 0x00, 0x0c, 0x00, 0x08, 0x00, 0x04, 0x00, 0x0e, 0x00, 0x00, 0x00, 
 0x14, 0x00, 0x00, 0x00, 0x1c, 0x00, 0x00, 0x00, 0x24, 0x01, 0x00, 0x00, 
 0x28, 0x01, 0x00, 0x00, 0x2c, 0x01, 0x00, 0x00, 0x04, 0x00, 0x00, 0x00, 
 0x6d, 0x61, 0x69, 0x6e, 0x00, 0x00, 0x00, 0x00, 0x04, 0x00, 0x00, 0x00, 
 0xcc, 0x00, 0x00, 0x00, 0x84, 0x00, 0x00, 0x00, 0x50, 0x00, 0x00, 0x00, 
 0x14, 0x00, 0x00, 0x00, 0x00, 0x00, 0x0e, 0x00, 0x1a, 0x00, 0x14, 0x00, 
 0x10, 0x00, 0x0c, 0x00, 0x0b, 0x00, 0x04, 0x00, 0x0e, 0x00, 0x00, 0x00, 
 0x1c, 0x00, 0x00, 0x00, 0x00, 0x00, 0x00, 0x09, 0x1c, 0x00, 0x00, 0x00, 
 0x20, 0x00, 0x00, 0x00, 0x01, 0x00, 0x00, 0x00, 0x00, 0x00, 0x06, 0x00, 
 0x08, 0x00, 0x04, 0x00, 0x06, 0x00, 0x00, 0x00, 0x00, 0x00, 0x80, 0x3f, 
 0x01, 0x00, 0x00, 0x00, 0x0a, 0x00, 0x00, 0x00, 0x01, 0x00, 0x00, 0x00, 
 0x09, 0x00, 0x00, 0x00, 0x9a, 0xff, 0xff, 0xff, 0x10, 0x00, 0x00, 0x00, 
 0x00, 0x00, 0x00, 0x08, 0x0c, 0x00, 0x00, 0x00, 0x10, 0x00, 0x00, 0x00, 
 0x24, 0xfb, 0xff, 0xff, 0x01, 0x00, 0x00, 0x00, 0x09, 0x00, 0x00, 0x00, 
 0x03, 0x00, 0x00, 0x00, 0x08, 0x00, 0x00, 0x00, 0x06, 0x00, 0x00, 0x00, 
 0x02, 0x00, 0x00, 0x00, 0xca, 0xff, 0xff, 0xff, 0x10, 0x00, 0x00, 0x00, 
 0x00, 0x00, 0x00, 0x08, 0x10, 0x00, 0x00, 0x00, 0x14, 0x00, 0x00, 0x00, 
 0xba, 0xff, 0xff, 0xff, 0x00, 0x00, 0x00, 0x01, 0x01, 0x00, 0x00, 0x00, 
 0x08, 0x00, 0x00, 0x00, 0x03, 0x00, 0x00, 0x00, 0x07, 0x00, 0x00, 0x00, 
 0x05, 0x00, 0x00, 0x00, 0x01, 0x00, 0x00, 0x00, 0x00, 0x00, 0x0e, 0x00, 
 0x16, 0x00, 0x00, 0x00, 0x10, 0x00, 0x0c, 0x00, 0x0b, 0x00, 0x04, 0x00, 
 0x0e, 0x00, 0x00, 0x00, 0x18, 0x00, 0x00, 0x00, 0x00, 0x00, 0x00, 0x08, 
 0x18, 0x00, 0x00, 0x00, 0x1c, 0x00, 0x00, 0x00, 0x00, 0x00, 0x06, 0x00, 
 0x08, 0x00, 0x07, 0x00, 0x06, 0x00, 0x00, 0x00, 0x00, 0x00, 0x00, 0x01, 
 0x01, 0x00, 0x00, 0x00, 0x07, 0x00, 0x00, 0x00, 0x03, 0x00, 0x00, 0x00, 
 0x00, 0x00, 0x00, 0x00, 0x04, 0x00, 0x00, 0x00, 0x03, 0x00, 0x00, 0x00, 
 0x01, 0x00, 0x00, 0x00, 0x0a, 0x00, 0x00, 0x00, 0x01, 0x00, 0x00, 0x00, 
 0x00, 0x00, 0x00, 0x00, 0x0b, 0x00, 0x00, 0x00, 0x04, 0x04, 0x00, 0x00, 
 0x94, 0x03, 0x00, 0x00, 0x24, 0x03, 0x00, 0x00, 0xd0, 0x02, 0x00, 0x00, 
 0x88, 0x02, 0x00, 0x00, 0x3c, 0x02, 0x00, 0x00, 0xf0, 0x01, 0x00, 0x00, 
 0x68, 0x01, 0x00, 0x00, 0xd8, 0x00, 0x00, 0x00, 0x60, 0x00, 0x00, 0x00, 
 0x04, 0x00, 0x00, 0x00, 0x3e, 0xfc, 0xff, 0xff, 0x00, 0x00, 0x00, 0x01, 
 0x14, 0x00, 0x00, 0x00, 0x1c, 0x00, 0x00, 0x00, 0x1c, 0x00, 0x00, 0x00, 
 0x0b, 0x00, 0x00, 0x00, 0x34, 0x00, 0x00, 0x00, 0x02, 0x00, 0x00, 0x00, 
 0xff, 0xff, 0xff, 0xff, 0x03, 0x00, 0x00, 0x00, 0x28, 0xfc, 0xff, 0xff, 
 0x19, 0x00, 0x00, 0x00, 0x53, 0x74, 0x61, 0x74, 0x65, 0x66, 0x75, 0x6c, 
 0x50, 0x61, 0x72, 0x74, 0x69, 0x74, 0x69, 0x6f, 0x6e, 0x65, 0x64, 0x43, 
 0x61, 0x6c, 0x6c, 0x3a, 0x30, 0x00, 0x00, 0x00, 0x02, 0x00, 0x00, 0x00, 
 0x01, 0x00, 0x00, 0x00, 0x03, 0x00, 0x00, 0x00, 0x96, 0xfc, 0xff, 0xff, 
 0x00, 0x00, 0x00, 0x01, 0x14, 0x00, 0x00, 0x00, 0x1c, 0x00, 0x00, 0x00, 
 0x1c, 0x00, 0x00, 0x00, 0x0a, 0x00, 0x00, 0x00, 0x50, 0x00, 0x00, 0x00, 
 0x02, 0x00, 0x00, 0x00, 0xff, 0xff, 0xff, 0xff, 0x03, 0x00, 0x00, 0x00, 
 0x80, 0xfc, 0xff, 0xff, 0x34, 0x00, 0x00, 0x00, 0x73, 0x65, 0x71, 0x75, 
 0x65, 0x6e, 0x74, 0x69, 0x61, 0x6c, 0x2f, 0x64, 0x65, 0x6e, 0x73, 0x65, 
 0x5f, 0x32, 0x2f, 0x4d, 0x61, 0x74, 0x4d, 0x75, 0x6c, 0x3b, 0x73, 0x65, 
 0x71, 0x75, 0x65, 0x6e, 0x74, 0x69, 0x61, 0x6c, 0x2f, 0x64, 0x65, 0x6e, 
 0x73, 0x65, 0x5f, 0x32, 0x2f, 0x42, 0x69, 0x61, 0x73, 0x41, 0x64, 0x64, 
 0x00, 0x00, 0x00, 0x00, 0x02, 0x00, 0x00, 0x00, 0x01, 0x00, 0x00, 0x00, 
 0x03, 0x00, 0x00, 0x00, 0x0a, 0xfd, 0xff, 0xff, 0x00, 0x00, 0x00, 0x01, 
 0x14, 0x00, 0x00, 0x00, 0x1c, 0x00, 0x00, 0x00, 0x1c, 0x00, 0x00, 0x00, 
 0x09, 0x00, 0x00, 0x00, 0x68, 0x00, 0x00, 0x00, 0x02, 0x00, 0x00, 0x00, 
 0xff, 0xff, 0xff, 0xff, 0x10, 0x00, 0x00, 0x00, 0xf4, 0xfc, 0xff, 0xff, 
 0x4c, 0x00, 0x00, 0x00, 0x73, 0x65, 0x71, 0x75, 0x65, 0x6e, 0x74, 0x69, 
 0x61, 0x6c, 0x2f, 0x64, 0x65, 0x6e, 0x73, 0x65, 0x5f, 0x31, 0x2f, 0x4d, 
 0x61, 0x74, 0x4d, 0x75, 0x6c, 0x3b, 0x73, 0x65, 0x71, 0x75, 0x65, 0x6e, 
 0x74, 0x69, 0x61, 0x6c, 0x2f, 0x64, 0x65, 0x6e, 0x73, 0x65, 0x5f, 0x31, 
 0x2f, 0x52, 0x65, 0x6c, 0x75, 0x3b, 0x73, 0x65, 0x71, 0x75, 0x65, 0x6e, 
 0x74, 0x69, 0x61, 0x6c, 0x2f, 0x64, 0x65, 0x6e, 0x73, 0x65, 0x5f, 0x31, 
 0x2f, 0x42, 0x69, 0x61, 0x73, 0x41, 0x64, 0x64, 0x00, 0x00, 0x00, 0x00, 
 0x02, 0x00, 0x00, 0x00, 0x01, 0x00, 0x00, 0x00, 0x10, 0x00, 0x00, 0x00, 
 0x96, 0xfd, 0xff, 0xff, 0x00, 0x00, 0x00, 0x01, 0x14, 0x00, 0x00, 0x00, 
 0x1c, 0x00, 0x00, 0x00, 0x1c, 0x00, 0x00, 0x00, 0x08, 0x00, 0x00, 0x00, 
 0x60, 0x00, 0x00, 0x00, 0x02, 0x00, 0x00, 0x00, 0xff, 0xff, 0xff, 0xff, 
 0x20, 0x00, 0x00, 0x00, 0x80, 0xfd, 0xff, 0xff, 0x46, 0x00, 0x00, 0x00, 
 0x73, 0x65, 0x71, 0x75, 0x65, 0x6e, 0x74, 0x69, 0x61, 0x6c, 0x2f, 0x64, 
 0x65, 0x6e, 0x73, 0x65, 0x2f, 0x4d, 0x61, 0x74, 0x4d, 0x75, 0x6c, 0x3b, 
 0x73, 0x65, 0x71, 0x75, 0x65, 0x6e, 0x74, 0x69, 0x61, 0x6c, 0x2f, 0x64, 
 0x65, 0x6e, 0x73, 0x65, 0x2f, 0x52, 0x65, 0x6c, 0x75, 0x3b, 0x73, 0x65, 
 0x71, 0x75, 0x65, 0x6e, 0x74, 0x69, 0x61, 0x6c, 0x2f, 0x64, 0x65, 0x6e, 
 0x73, 0x65, 0x2f, 0x42, 0x69, 0x61, 0x73, 0x41, 0x64, 0x64, 0x00, 0x00, 
 0x02, 0x00, 0x00, 0x00, 0x01, 0x00, 0x00, 0x00, 0x20, 0x00, 0x00, 0x00, 
 0x86, 0xfe, 0xff, 0xff, 0x00, 0x00, 0x00, 0x01, 0x10, 0x00, 0x00, 0x00, 
 0x10, 0x00, 0x00, 0x00, 0x07, 0x00, 0x00, 0x00, 0x28, 0x00, 0x00, 0x00, 
 0xf4, 0xfd, 0xff, 0xff, 0x19, 0x00, 0x00, 0x00, 0x73, 0x65, 0x71, 0x75, 
 0x65, 0x6e, 0x74, 0x69, 0x61, 0x6c, 0x2f, 0x64, 0x65, 0x6e, 0x73, 0x65, 
 0x5f, 0x32, 0x2f, 0x4d, 0x61, 0x74, 0x4d, 0x75, 0x6c, 0x00, 0x00, 0x00, 
 0x02, 0x00, 0x00, 0x00, 0x03, 0x00, 0x00, 0x00, 0x10, 0x00, 0x00, 0x00, 
 0xce, 0xfe, 0xff, 0xff, 0x00, 0x00, 0x00, 0x01, 0x10, 0x00, 0x00, 0x00, 
 0x10, 0x00, 0x00, 0x00, 0x06, 0x00, 0x00, 0x00, 0x28, 0x00, 0x00, 0x00, 
 0x3c, 0xfe, 0xff, 0xff, 0x19, 0x00, 0x00, 0x00, 0x73, 0x65, 0x71, 0x75, 
 0x65, 0x6e, 0x74, 0x69, 0x61, 0x6c, 0x2f, 0x64, 0x65, 0x6e, 0x73, 0x65, 
 0x5f, 0x31, 0x2f, 0x4d, 0x61, 0x74, 0x4d, 0x75, 0x6c, 0x00, 0x00, 0x00, 
 0x02, 0x00, 0x00, 0x00, 0x10, 0x00, 0x00, 0x00, 0x20, 0x00, 0x00, 0x00, 
 0x16, 0xff, 0xff, 0xff, 0x00, 0x00, 0x00, 0x01, 0x10, 0x00, 0x00, 0x00, 
 0x10, 0x00, 0x00, 0x00, 0x05, 0x00, 0x00, 0x00, 0x24, 0x00, 0x00, 0x00, 
 0x84, 0xfe, 0xff, 0xff, 0x17, 0x00, 0x00, 0x00, 0x73, 0x65, 0x71, 0x75, 
 0x65, 0x6e, 0x74, 0x69, 0x61, 0x6c, 0x2f, 0x64, 0x65, 0x6e, 0x73, 0x65, 
 0x2f, 0x4d, 0x61, 0x74, 0x4d, 0x75, 0x6c, 0x00, 0x02, 0x00, 0x00, 0x00, 
 0x20, 0x00, 0x00, 0x00, 0x08, 0x00, 0x00, 0x00, 0x5a, 0xff, 0xff, 0xff, 
 0x00, 0x00, 0x00, 0x01, 0x10, 0x00, 0x00, 0x00, 0x10, 0x00, 0x00, 0x00, 
 0x04, 0x00, 0x00, 0x00, 0x34, 0x00, 0x00, 0x00, 0xc8, 0xfe, 0xff, 0xff, 
 0x27, 0x00, 0x00, 0x00, 0x73, 0x65, 0x71, 0x75, 0x65, 0x6e, 0x74, 0x69, 
 0x61, 0x6c, 0x2f, 0x64, 0x65, 0x6e, 0x73, 0x65, 0x2f, 0x42, 0x69, 0x61, 
 0x73, 0x41, 0x64, 0x64, 0x2f, 0x52, 0x65, 0x61, 0x64, 0x56, 0x61, 0x72, 
 0x69, 0x61, 0x62, 0x6c, 0x65, 0x4f, 0x70, 0x00, 0x01, 0x00, 0x00, 0x00, 
 0x20, 0x00, 0x00, 0x00, 0xaa, 0xff, 0xff, 0xff, 0x00, 0x00, 0x00, 0x01, 
 0x10, 0x00, 0x00, 0x00, 0x10, 0x00, 0x00, 0x00, 0x03, 0x00, 0x00, 0x00, 
 0x38, 0x00, 0x00, 0x00, 0x18, 0xff, 0xff, 0xff, 0x29, 0x00, 0x00, 0x00, 
 0x73, 0x65, 0x71, 0x75, 0x65, 0x6e, 0x74, 0x69, 0x61, 0x6c, 0x2f, 0x64, 
 0x65, 0x6e, 0x73, 0x65, 0x5f, 0x32, 0x2f, 0x42, 0x69, 0x61, 0x73, 0x41, 
 0x64, 0x64, 0x2f, 0x52, 0x65, 0x61, 0x64, 0x56, 0x61, 0x72, 0x69, 0x61, 
 0x62, 0x6c, 0x65, 0x4f, 0x70, 0x00, 0x00, 0x00, 0x01, 0x00, 0x00, 0x00, 
 0x03, 0x00, 0x00, 0x00, 0x00, 0x00, 0x16, 0x00, 0x18, 0x00, 0x14, 0x00, 
 0x00, 0x00, 0x10, 0x00, 0x0c, 0x00, 0x08, 0x00, 0x00, 0x00, 0x00, 0x00, 
 0x00, 0x00, 0x07, 0x00, 0x16, 0x00, 0x00, 0x00, 0x00, 0x00, 0x00, 0x01, 
 0x10, 0x00, 0x00, 0x00, 0x10, 0x00, 0x00, 0x00, 0x02, 0x00, 0x00, 0x00, 
 0x38, 0x00, 0x00, 0x00, 0x84, 0xff, 0xff, 0xff, 0x29, 0x00, 0x00, 0x00, 
 0x73, 0x65, 0x71, 0x75, 0x65, 0x6e, 0x74, 0x69, 0x61, 0x6c, 0x2f, 0x64, 
 0x65, 0x6e, 0x73, 0x65, 0x5f, 0x31, 0x2f, 0x42, 0x69, 0x61, 0x73, 0x41, 
 0x64, 0x64, 0x2f, 0x52, 0x65, 0x61, 0x64, 0x56, 0x61, 0x72, 0x69, 0x61, 
 0x62, 0x6c, 0x65, 0x4f, 0x70, 0x00, 0x00, 0x00, 0x01, 0x00, 0x00, 0x00, 
 0x10, 0x00, 0x00, 0x00, 0x00, 0x00, 0x16, 0x00, 0x1c, 0x00, 0x18, 0x00, 
 0x00, 0x00, 0x14, 0x00, 0x10, 0x00, 0x0c, 0x00, 0x00, 0x00, 0x00, 0x00, 
 0x08, 0x00, 0x07, 0x00, 0x16, 0x00, 0x00, 0x00, 0x00, 0x00, 0x00, 0x01, 
 0x14, 0x00, 0x00, 0x00, 0x20, 0x00, 0x00, 0x00, 0x20, 0x00, 0x00, 0x00, 
 0x01, 0x00, 0x00, 0x00, 0x3c, 0x00, 0x00, 0x00, 0x02, 0x00, 0x00, 0x00, 
 0xff, 0xff, 0xff, 0xff, 0x08, 0x00, 0x00, 0x00, 0x04, 0x00, 0x04, 0x00, 
 0x04, 0x00, 0x00, 0x00, 0x1d, 0x00, 0x00, 0x00, 0x73, 0x65, 0x72, 0x76, 
 0x69, 0x6e, 0x67, 0x5f, 0x64, 0x65, 0x66, 0x61, 0x75, 0x6c, 0x74, 0x5f, 
 0x64, 0x65, 0x6e, 0x73, 0x65, 0x5f, 0x69, 0x6e, 0x70, 0x75, 0x74, 0x3a, 
 0x30, 0x00, 0x00, 0x00, 0x02, 0x00, 0x00, 0x00, 0x01, 0x00, 0x00, 0x00, 
 0x08, 0x00, 0x00, 0x00, 0x02, 0x00, 0x00, 0x00, 0x20, 0x00, 0x00, 0x00, 
 0x04, 0x00, 0x00, 0x00, 0xf4, 0xff, 0xff, 0xff, 0x19, 0x00, 0x00, 0x00, 
 0x00, 0x00, 0x00, 0x19, 0x0c, 0x00, 0x0c, 0x00, 0x0b, 0x00, 0x00, 0x00, 
 0x00, 0x00, 0x04, 0x00, 0x0c, 0x00, 0x00, 0x00, 0x09, 0x00, 0x00, 0x00, 
 0x00, 0x00, 0x00, 0x09, 
};
const unsigned int air_quality_model_tflite_len = 5560;
